unsigned char sine_model_quantized_tflite[] = {
  0x18, 0x00, 0x00, 0x00, 0x54, 0x46, 0x4c, 0x33, 0x00, 0x00, 0x0e, 0x00,
  0x18, 0x00, 0x04, 0x00, 0x08, 0x00, 0x0c, 0x00, 0x10, 0x00, 0x14, 0x00,
  0x0e, 0x00, 0x00, 0x00, 0x03, 0x00, 0x00, 0x00, 0x08, 0x09, 0x00, 0x00,
  0x80, 0x03, 0x00, 0x00, 0x68, 0x03, 0x00, 0x00, 0x04, 0x00, 0x00, 0x00,
  0x0e, 0x00, 0x00, 0x00, 0x58, 0x03, 0x00, 0x00, 0x44, 0x03, 0x00, 0x00,
  0x0c, 0x03, 0x00, 0x00, 0xdc, 0x02, 0x00, 0x00, 0xac, 0x02, 0x00, 0x00,
  0x7c, 0x02, 0x00, 0x00, 0x74, 0x02, 0x00, 0x00, 0x44, 0x02, 0x00, 0x00,
  0x3c, 0x02, 0x00, 0x00, 0x34, 0x02, 0x00, 0x00, 0x24, 0x01, 0x00, 0x00,
  0x1c, 0x01, 0x00, 0x00, 0x0c, 0x00, 0x00, 0x00, 0x04, 0x00, 0x00, 0x00,
  0x68, 0xf7, 0xff, 0xff, 0xfa, 0xfc, 0xff, 0xff, 0x04, 0x00, 0x00, 0x00,
  0x00, 0x01, 0x00, 0x00, 0x7f, 0xf1, 0x88, 0x3e, 0xdf, 0x4b, 0x9c, 0xbe,
  0x6e, 0x5e, 0xed, 0x3e, 0x84, 0xd4, 0x01, 0x3e, 0x34, 0x56, 0x35, 0x3e,
  0xc1, 0xa1, 0xa0, 0x3e, 0x9d, 0x41, 0xb7, 0x3e, 0xb5, 0x52, 0x33, 0xc0,
  0x3e, 0x2f, 0x7d, 0x3e, 0x8a, 0x0e, 0x4e, 0xbe, 0xed, 0x8d, 0xf0, 0xbc,
  0xd6, 0x55, 0xf3, 0x3e, 0x88, 0x4e, 0x8a, 0xbd, 0xf9, 0x6a, 0x08, 0x3f,
  0xfa, 0xd8, 0xb5, 0xbe, 0x75, 0xc1, 0x19, 0xc0, 0x3c, 0x9e, 0x00, 0xbe,
  0xf0, 0xdd, 0xd5, 0x3c, 0xf7, 0x8e, 0x09, 0xbf, 0xb2, 0x20, 0x14, 0xbf,
  0x28, 0x93, 0xfd, 0xbe, 0x59, 0x70, 0x3b, 0xbf, 0xf7, 0x28, 0x7e, 0x3e,
  0x82, 0x6a, 0xd1, 0x3e, 0xaa, 0x74, 0xc1, 0xbe, 0x12, 0xc1, 0xbe, 0xbe,
  0xe8, 0x0e, 0x1f, 0x3e, 0xbe, 0x35, 0xa2, 0xbe, 0x06, 0xfd, 0xc6, 0xbe,
  0x2a, 0x3a, 0xc9, 0x3e, 0x80, 0x06, 0x0a, 0xbc, 0x1f, 0x4d, 0x19, 0x3f,
  0xfb, 0x7c, 0x6d, 0xbe, 0x2d, 0x69, 0x3e, 0x3e, 0xbf, 0x5a, 0x9d, 0xbe,
  0x0c, 0xbb, 0xe7, 0xbd, 0x0e, 0x6c, 0xee, 0x3e, 0xdd, 0x97, 0x61, 0x3d,
  0x7c, 0x0b, 0xe1, 0x3d, 0x13, 0x9c, 0x1b, 0x40, 0xdc, 0x7b, 0x5c, 0xbe,
  0x6f, 0xdf, 0xcd, 0xbe, 0xb8, 0xad, 0x8b, 0x3d, 0x4e, 0x28, 0x94, 0x3e,
  0xf1, 0xde, 0x0e, 0x3f, 0x80, 0x87, 0x26, 0xbc, 0xc0, 0xff, 0xde, 0xbe,
  0x60, 0x54, 0xf8, 0xbd, 0x33, 0x7c, 0x0f, 0x3f, 0x0d, 0x27, 0x3a, 0x3e,
  0xf4, 0x4f, 0xf0, 0xbe, 0x47, 0x23, 0xa6, 0xbe, 0x76, 0xe1, 0xcf, 0x3e,
  0xc0, 0xe5, 0x27, 0xbc, 0x56, 0x99, 0xc4, 0xbe, 0x8c, 0xd8, 0x0a, 0xbe,
  0x0a, 0x82, 0x8b, 0xbe, 0x92, 0x14, 0x9c, 0xbe, 0xd4, 0x8d, 0xef, 0xbd,
  0xf0, 0x7b, 0x20, 0x3d, 0xc4, 0x3b, 0x05, 0x3e, 0x88, 0x44, 0xc6, 0xbe,
  0xe5, 0x5c, 0x98, 0x3e, 0x83, 0x2a, 0x1b, 0x3f, 0x78, 0xf8, 0xff, 0xff,
  0x0a, 0xfe, 0xff, 0xff, 0x04, 0x00, 0x00, 0x00, 0x00, 0x01, 0x00, 0x00,
  0x8b, 0xe3, 0xd6, 0xbf, 0xf0, 0x4f, 0x0c, 0x3e, 0xe4, 0x38, 0x09, 0x3f,
  0x3e, 0x98, 0x0d, 0xbe, 0x57, 0xb9, 0xc4, 0xbd, 0xf0, 0xc3, 0x3f, 0x3d,
  0xde, 0xf1, 0xf9, 0x3e, 0xf1, 0xac, 0xb5, 0x3e, 0xce, 0x05, 0xc8, 0xbc,
  0x0d, 0xa0, 0x6d, 0x3e, 0xa7, 0xcc, 0xa4, 0xbe, 0xaa, 0xe8, 0x13, 0xbf,
  0x73, 0x16, 0x0c, 0xbf, 0xf8, 0x6c, 0x44, 0x3e, 0x80, 0x72, 0xce, 0xbd,
  0x7a, 0x51, 0x1d, 0xbe, 0xaf, 0x9f, 0x8c, 0x3e, 0x30, 0xb4, 0x33, 0x3f,
  0x3c, 0x28, 0xf3, 0xbe, 0x72, 0x55, 0xc4, 0x3e, 0x5f, 0xb5, 0x33, 0xbf,
  0xb0, 0x2b, 0x92, 0x3e, 0xcd, 0x63, 0x13, 0x3f, 0xff, 0xb2, 0x18, 0x3f,
  0x21, 0x64, 0xca, 0x3e, 0xcc, 0x0f, 0x9b, 0x3e, 0x02, 0x41, 0x4a, 0xbe,
  0x68, 0x16, 0x93, 0x3d, 0x48, 0x4c, 0x5c, 0xbf, 0x6a, 0x54, 0xce, 0x3e,
  0x30, 0x66, 0xc0, 0x3e, 0xba, 0xff, 0xab, 0x3e, 0x1b, 0x9d, 0x94, 0x3e,
  0xd2, 0xa9, 0x99, 0xbd, 0xff, 0x8f, 0xa2, 0xbd, 0x08, 0xd4, 0xe1, 0x3d,
  0xd5, 0xdd, 0x12, 0x3e, 0x90, 0xb3, 0xc9, 0x3d, 0x7b, 0x8c, 0x0a, 0xbe,
  0x0d, 0x13, 0x0e, 0x3f, 0x69, 0x73, 0x80, 0xbe, 0x27, 0x44, 0x7c, 0x3e,
  0x42, 0x49, 0xf2, 0x3e, 0x80, 0x1d, 0x91, 0x3d, 0x2c, 0xce, 0x0b, 0x3f,
  0x90, 0x20, 0x1c, 0x3e, 0xf2, 0x07, 0xbb, 0x3e, 0x4d, 0xb8, 0xf1, 0x3c,
  0xdb, 0xc5, 0xad, 0x3e, 0xee, 0x1a, 0xb5, 0xbe, 0x40, 0x44, 0x4c, 0x3e,
  0x02, 0x2f, 0xcd, 0x3e, 0x2c, 0x2e, 0x75, 0xbf, 0x7c, 0x71, 0xb7, 0x3e,
  0x90, 0x17, 0x08, 0xbd, 0xbb, 0x3f, 0x09, 0x3f, 0x47, 0xdc, 0x07, 0x3d,
  0xf3, 0xf2, 0xb3, 0xbe, 0x39, 0x66, 0x55, 0xbe, 0x5e, 0xd3, 0xe9, 0xbe,
  0x47, 0xea, 0x71, 0x3f, 0x90, 0x1c, 0x45, 0xbe, 0x7e, 0xda, 0xbb, 0x3e,
  0x5b, 0x85, 0xc8, 0xbd, 0x88, 0xf9, 0xff, 0xff, 0x8c, 0xf9, 0xff, 0xff,
  0x1e, 0xff, 0xff, 0xff, 0x04, 0x00, 0x00, 0x00, 0x20, 0x00, 0x00, 0x00,
  0x3e, 0xd0, 0x39, 0x3f, 0x30, 0xbd, 0xfe, 0x3e, 0x5b, 0xc9, 0x2f, 0x3f,
  0x0d, 0x87, 0xd3, 0xbe, 0xd0, 0xe1, 0x93, 0xbe, 0xe6, 0xbd, 0x15, 0x3f,
  0x2a, 0xb2, 0x01, 0x3f, 0xe2, 0x24, 0x47, 0x3e, 0xbc, 0xf9, 0xff, 0xff,
  0x4e, 0xff, 0xff, 0xff, 0x04, 0x00, 0x00, 0x00, 0x20, 0x00, 0x00, 0x00,
  0xd7, 0x71, 0x8e, 0xbe, 0x80, 0xec, 0x36, 0x3e, 0x80, 0x3b, 0xf2, 0xbc,
  0x00, 0x00, 0x00, 0x00, 0x00, 0x00, 0x00, 0x00, 0x49, 0x7d, 0x5c, 0xbe,
  0x2b, 0x9e, 0xa1, 0x3e, 0xf8, 0x95, 0x64, 0xbf, 0x7a, 0xff, 0xff, 0xff,
  0x04, 0x00, 0x00, 0x00, 0x20, 0x00, 0x00, 0x00, 0x2d, 0xa3, 0x94, 0x3c,
  0x8b, 0xa4, 0xf4, 0xbd, 0xe5, 0x41, 0xb9, 0x3e, 0x00, 0x00, 0x00, 0x00,
  0x22, 0x7d, 0x16, 0x3f, 0x00, 0x00, 0x00, 0x00, 0x58, 0x6c, 0xc0, 0xbb,
  0x0f, 0x4f, 0x11, 0xbd, 0xa6, 0xff, 0xff, 0xff, 0x04, 0x00, 0x00, 0x00,
  0x20, 0x00, 0x00, 0x00, 0x73, 0xef, 0xe7, 0x3d, 0xa5, 0xae, 0xf2, 0xbd,
  0xc9, 0xaa, 0xe8, 0xbe, 0xa9, 0x45, 0x02, 0xbe, 0xfe, 0xc6, 0x61, 0x3e,
  0x52, 0xf6, 0x5c, 0x3c, 0xbd, 0x7a, 0x74, 0xbe, 0x96, 0x5d, 0x6b, 0x3e,
  0xd2, 0xff, 0xff, 0xff, 0x04, 0x00, 0x00, 0x00, 0x20, 0x00, 0x00, 0x00,
  0xe1, 0xf2, 0xa9, 0xbf, 0x30, 0xbe, 0xbd, 0xbe, 0x79, 0x14, 0x02, 0xbf,
  0x33, 0x19, 0x59, 0xbf, 0xfb, 0x91, 0xfc, 0x3e, 0x46, 0x95, 0x96, 0xbf,
  0x7e, 0x45, 0x41, 0xbf, 0x60, 0x49, 0x2e, 0x3f, 0x00, 0x00, 0x06, 0x00,
  0x08, 0x00, 0x04, 0x00, 0x06, 0x00, 0x00, 0x00, 0x04, 0x00, 0x00, 0x00,
  0x04, 0x00, 0x00, 0x00, 0x7f, 0xd5, 0x7e, 0x3e, 0x88, 0xfa, 0xff, 0xff,
  0x0f, 0x00, 0x00, 0x00, 0x54, 0x4f, 0x43, 0x4f, 0x20, 0x43, 0x6f, 0x6e,
  0x76, 0x65, 0x72, 0x74, 0x65, 0x64, 0x2e, 0x00, 0x01, 0x00, 0x00, 0x00,
  0x10, 0x00, 0x00, 0x00, 0x0c, 0x00, 0x14, 0x00, 0x04, 0x00, 0x08, 0x00,
  0x0c, 0x00, 0x10, 0x00, 0x0c, 0x00, 0x00, 0x00, 0x28, 0x01, 0x00, 0x00,
  0x1c, 0x01, 0x00, 0x00, 0x10, 0x01, 0x00, 0x00, 0x04, 0x00, 0x00, 0x00,
  0x04, 0x00, 0x00, 0x00, 0xc8, 0x00, 0x00, 0x00, 0x80, 0x00, 0x00, 0x00,
  0x38, 0x00, 0x00, 0x00, 0x04, 0x00, 0x00, 0x00, 0x9a, 0xff, 0xff, 0xff,
  0x00, 0x00, 0x00, 0x08, 0x18, 0x00, 0x00, 0x00, 0x0c, 0x00, 0x00, 0x00,
  0x04, 0x00, 0x00, 0x00, 0xf0, 0xfa, 0xff, 0xff, 0x01, 0x00, 0x00, 0x00,
  0x00, 0x00, 0x00, 0x00, 0x03, 0x00, 0x00, 0x00, 0x0a, 0x00, 0x00, 0x00,
  0x0b, 0x00, 0x00, 0x00, 0x0c, 0x00, 0x00, 0x00, 0xca, 0xff, 0xff, 0xff,
  0x00, 0x00, 0x00, 0x08, 0x1c, 0x00, 0x00, 0x00, 0x10, 0x00, 0x00, 0x00,
  0x04, 0x00, 0x00, 0x00, 0x76, 0xff, 0xff, 0xff, 0x00, 0x00, 0x00, 0x01,
  0x01, 0x00, 0x00, 0x00, 0x0a, 0x00, 0x00, 0x00, 0x03, 0x00, 0x00, 0x00,
  0x07, 0x00, 0x00, 0x00, 0x08, 0x00, 0x00, 0x00, 0x09, 0x00, 0x00, 0x00,
  0x00, 0x00, 0x0e, 0x00, 0x14, 0x00, 0x00, 0x00, 0x08, 0x00, 0x0c, 0x00,
  0x07, 0x00, 0x10, 0x00, 0x0e, 0x00, 0x00, 0x00, 0x00, 0x00, 0x00, 0x08,
  0x1c, 0x00, 0x00, 0x00, 0x10, 0x00, 0x00, 0x00, 0x04, 0x00, 0x00, 0x00,
  0xba, 0xff, 0xff, 0xff, 0x00, 0x00, 0x00, 0x01, 0x01, 0x00, 0x00, 0x00,
  0x07, 0x00, 0x00, 0x00, 0x03, 0x00, 0x00, 0x00, 0x04, 0x00, 0x00, 0x00,
  0x05, 0x00, 0x00, 0x00, 0x06, 0x00, 0x00, 0x00, 0x00, 0x00, 0x0e, 0x00,
  0x16, 0x00, 0x00, 0x00, 0x08, 0x00, 0x0c, 0x00, 0x07, 0x00, 0x10, 0x00,
  0x0e, 0x00, 0x00, 0x00, 0x00, 0x00, 0x00, 0x08, 0x24, 0x00, 0x00, 0x00,
  0x18, 0x00, 0x00, 0x00, 0x0c, 0x00, 0x00, 0x00, 0x00, 0x00, 0x06, 0x00,
  0x08, 0x00, 0x07, 0x00, 0x06, 0x00, 0x00, 0x00, 0x00, 0x00, 0x00, 0x01,
  0x01, 0x00, 0x00, 0x00, 0x04, 0x00, 0x00, 0x00, 0x03, 0x00, 0x00, 0x00,
  0x01, 0x00, 0x00, 0x00, 0x02, 0x00, 0x00, 0x00, 0x03, 0x00, 0x00, 0x00,
  0x01, 0x00, 0x00, 0x00, 0x00, 0x00, 0x00, 0x00, 0x01, 0x00, 0x00, 0x00,
  0x01, 0x00, 0x00, 0x00, 0x0d, 0x00, 0x00, 0x00, 0x08, 0x04, 0x00, 0x00,
  0x9c, 0x03, 0x00, 0x00, 0x38, 0x03, 0x00, 0x00, 0xec, 0x02, 0x00, 0x00,
  0xa4, 0x02, 0x00, 0x00, 0x40, 0x02, 0x00, 0x00, 0xf4, 0x01, 0x00, 0x00,
  0xac, 0x01, 0x00, 0x00, 0x48, 0x01, 0x00, 0x00, 0xfc, 0x00, 0x00, 0x00,
  0xb4, 0x00, 0x00, 0x00, 0x50, 0x00, 0x00, 0x00, 0x04, 0x00, 0x00, 0x00,
  0x3a, 0xfc, 0xff, 0xff, 0x3c, 0x00, 0x00, 0x00, 0x01, 0x00, 0x00, 0x00,
  0x0c, 0x00, 0x00, 0x00, 0x04, 0x00, 0x00, 0x00, 0x2c, 0xfc, 0xff, 0xff,
  0x21, 0x00, 0x00, 0x00, 0x73, 0x65, 0x71, 0x75, 0x65, 0x6e, 0x74, 0x69,
  0x61, 0x6c, 0x5f, 0x39, 0x2f, 0x64, 0x65, 0x6e, 0x73, 0x65, 0x5f, 0x33,
  0x33, 0x2f, 0x4d, 0x61, 0x74, 0x4d, 0x75, 0x6c, 0x5f, 0x62, 0x69, 0x61,
  0x73, 0x00, 0x00, 0x00, 0x01, 0x00, 0x00, 0x00, 0x01, 0x00, 0x00, 0x00,
  0x82, 0xfc, 0xff, 0xff, 0x50, 0x00, 0x00, 0x00, 0x02, 0x00, 0x00, 0x00,
  0x0c, 0x00, 0x00, 0x00, 0x04, 0x00, 0x00, 0x00, 0x74, 0xfc, 0xff, 0xff,
  0x35, 0x00, 0x00, 0x00, 0x73, 0x65, 0x71, 0x75, 0x65, 0x6e, 0x74, 0x69,
  0x61, 0x6c, 0x5f, 0x39, 0x2f, 0x64, 0x65, 0x6e, 0x73, 0x65, 0x5f, 0x33,
  0x33, 0x2f, 0x4d, 0x61, 0x74, 0x4d, 0x75, 0x6c, 0x2f, 0x52, 0x65, 0x61,
  0x64, 0x56, 0x61, 0x72, 0x69, 0x61, 0x62, 0x6c, 0x65, 0x4f, 0x70, 0x2f,
  0x74, 0x72, 0x61, 0x6e, 0x73, 0x70, 0x6f, 0x73, 0x65, 0x00, 0x00, 0x00,
  0x02, 0x00, 0x00, 0x00, 0x01, 0x00, 0x00, 0x00, 0x08, 0x00, 0x00, 0x00,
  0xe2, 0xfc, 0xff, 0xff, 0x34, 0x00, 0x00, 0x00, 0x08, 0x00, 0x00, 0x00,
  0x0c, 0x00, 0x00, 0x00, 0x04, 0x00, 0x00, 0x00, 0xd4, 0xfc, 0xff, 0xff,
  0x1a, 0x00, 0x00, 0x00, 0x73, 0x65, 0x71, 0x75, 0x65, 0x6e, 0x74, 0x69,
  0x61, 0x6c, 0x5f, 0x39, 0x2f, 0x64, 0x65, 0x6e, 0x73, 0x65, 0x5f, 0x33,
  0x32, 0x2f, 0x52, 0x65, 0x6c, 0x75, 0x00, 0x00, 0x02, 0x00, 0x00, 0x00,
  0x01, 0x00, 0x00, 0x00, 0x08, 0x00, 0x00, 0x00, 0x26, 0xfd, 0xff, 0xff,
  0x3c, 0x00, 0x00, 0x00, 0x03, 0x00, 0x00, 0x00, 0x0c, 0x00, 0x00, 0x00,
  0x04, 0x00, 0x00, 0x00, 0x18, 0xfd, 0xff, 0xff, 0x21, 0x00, 0x00, 0x00,
  0x73, 0x65, 0x71, 0x75, 0x65, 0x6e, 0x74, 0x69, 0x61, 0x6c, 0x5f, 0x39,
  0x2f, 0x64, 0x65, 0x6e, 0x73, 0x65, 0x5f, 0x33, 0x32, 0x2f, 0x4d, 0x61,
  0x74, 0x4d, 0x75, 0x6c, 0x5f, 0x62, 0x69, 0x61, 0x73, 0x00, 0x00, 0x00,
  0x01, 0x00, 0x00, 0x00, 0x08, 0x00, 0x00, 0x00, 0x6e, 0xfd, 0xff, 0xff,
  0x50, 0x00, 0x00, 0x00, 0x0a, 0x00, 0x00, 0x00, 0x0c, 0x00, 0x00, 0x00,
  0x04, 0x00, 0x00, 0x00, 0x60, 0xfd, 0xff, 0xff, 0x35, 0x00, 0x00, 0x00,
  0x73, 0x65, 0x71, 0x75, 0x65, 0x6e, 0x74, 0x69, 0x61, 0x6c, 0x5f, 0x39,
  0x2f, 0x64, 0x65, 0x6e, 0x73, 0x65, 0x5f, 0x33, 0x32, 0x2f, 0x4d, 0x61,
  0x74, 0x4d, 0x75, 0x6c, 0x2f, 0x52, 0x65, 0x61, 0x64, 0x56, 0x61, 0x72,
  0x69, 0x61, 0x62, 0x6c, 0x65, 0x4f, 0x70, 0x2f, 0x74, 0x72, 0x61, 0x6e,
  0x73, 0x70, 0x6f, 0x73, 0x65, 0x00, 0x00, 0x00, 0x02, 0x00, 0x00, 0x00,
  0x08, 0x00, 0x00, 0x00, 0x08, 0x00, 0x00, 0x00, 0xce, 0xfd, 0xff, 0xff,
  0x34, 0x00, 0x00, 0x00, 0x0b, 0x00, 0x00, 0x00, 0x0c, 0x00, 0x00, 0x00,
  0x04, 0x00, 0x00, 0x00, 0xc0, 0xfd, 0xff, 0xff, 0x1a, 0x00, 0x00, 0x00,
  0x73, 0x65, 0x71, 0x75, 0x65, 0x6e, 0x74, 0x69, 0x61, 0x6c, 0x5f, 0x39,
  0x2f, 0x64, 0x65, 0x6e, 0x73, 0x65, 0x5f, 0x33, 0x31, 0x2f, 0x52, 0x65,
  0x6c, 0x75, 0x00, 0x00, 0x02, 0x00, 0x00, 0x00, 0x01, 0x00, 0x00, 0x00,
  0x08, 0x00, 0x00, 0x00, 0x12, 0xfe, 0xff, 0xff, 0x3c, 0x00, 0x00, 0x00,
  0x04, 0x00, 0x00, 0x00, 0x0c, 0x00, 0x00, 0x00, 0x04, 0x00, 0x00, 0x00,
  0x04, 0xfe, 0xff, 0xff, 0x21, 0x00, 0x00, 0x00, 0x73, 0x65, 0x71, 0x75,
  0x65, 0x6e, 0x74, 0x69, 0x61, 0x6c, 0x5f, 0x39, 0x2f, 0x64, 0x65, 0x6e,
  0x73, 0x65, 0x5f, 0x33, 0x31, 0x2f, 0x4d, 0x61, 0x74, 0x4d, 0x75, 0x6c,
  0x5f, 0x62, 0x69, 0x61, 0x73, 0x00, 0x00, 0x00, 0x01, 0x00, 0x00, 0x00,
  0x08, 0x00, 0x00, 0x00, 0x5a, 0xfe, 0xff, 0xff, 0x50, 0x00, 0x00, 0x00,
  0x0c, 0x00, 0x00, 0x00, 0x0c, 0x00, 0x00, 0x00, 0x04, 0x00, 0x00, 0x00,
  0x4c, 0xfe, 0xff, 0xff, 0x35, 0x00, 0x00, 0x00, 0x73, 0x65, 0x71, 0x75,
  0x65, 0x6e, 0x74, 0x69, 0x61, 0x6c, 0x5f, 0x39, 0x2f, 0x64, 0x65, 0x6e,
  0x73, 0x65, 0x5f, 0x33, 0x31, 0x2f, 0x4d, 0x61, 0x74, 0x4d, 0x75, 0x6c,
  0x2f, 0x52, 0x65, 0x61, 0x64, 0x56, 0x61, 0x72, 0x69, 0x61, 0x62, 0x6c,
  0x65, 0x4f, 0x70, 0x2f, 0x74, 0x72, 0x61, 0x6e, 0x73, 0x70, 0x6f, 0x73,
  0x65, 0x00, 0x00, 0x00, 0x02, 0x00, 0x00, 0x00, 0x08, 0x00, 0x00, 0x00,
  0x08, 0x00, 0x00, 0x00, 0xba, 0xfe, 0xff, 0xff, 0x34, 0x00, 0x00, 0x00,
  0x06, 0x00, 0x00, 0x00, 0x0c, 0x00, 0x00, 0x00, 0x04, 0x00, 0x00, 0x00,
  0xac, 0xfe, 0xff, 0xff, 0x1a, 0x00, 0x00, 0x00, 0x73, 0x65, 0x71, 0x75,
  0x65, 0x6e, 0x74, 0x69, 0x61, 0x6c, 0x5f, 0x39, 0x2f, 0x64, 0x65, 0x6e,
  0x73, 0x65, 0x5f, 0x33, 0x30, 0x2f, 0x52, 0x65, 0x6c, 0x75, 0x00, 0x00,
  0x02, 0x00, 0x00, 0x00, 0x01, 0x00, 0x00, 0x00, 0x08, 0x00, 0x00, 0x00,
  0xfe, 0xfe, 0xff, 0xff, 0x3c, 0x00, 0x00, 0x00, 0x05, 0x00, 0x00, 0x00,
  0x0c, 0x00, 0x00, 0x00, 0x04, 0x00, 0x00, 0x00, 0xf0, 0xfe, 0xff, 0xff,
  0x21, 0x00, 0x00, 0x00, 0x73, 0x65, 0x71, 0x75, 0x65, 0x6e, 0x74, 0x69,
  0x61, 0x6c, 0x5f, 0x39, 0x2f, 0x64, 0x65, 0x6e, 0x73, 0x65, 0x5f, 0x33,
  0x30, 0x2f, 0x4d, 0x61, 0x74, 0x4d, 0x75, 0x6c, 0x5f, 0x62, 0x69, 0x61,
  0x73, 0x00, 0x00, 0x00, 0x01, 0x00, 0x00, 0x00, 0x08, 0x00, 0x00, 0x00,
  0x46, 0xff, 0xff, 0xff, 0x50, 0x00, 0x00, 0x00, 0x07, 0x00, 0x00, 0x00,
  0x0c, 0x00, 0x00, 0x00, 0x04, 0x00, 0x00, 0x00, 0x38, 0xff, 0xff, 0xff,
  0x35, 0x00, 0x00, 0x00, 0x73, 0x65, 0x71, 0x75, 0x65, 0x6e, 0x74, 0x69,
  0x61, 0x6c, 0x5f, 0x39, 0x2f, 0x64, 0x65, 0x6e, 0x73, 0x65, 0x5f, 0x33,
  0x30, 0x2f, 0x4d, 0x61, 0x74, 0x4d, 0x75, 0x6c, 0x2f, 0x52, 0x65, 0x61,
  0x64, 0x56, 0x61, 0x72, 0x69, 0x61, 0x62, 0x6c, 0x65, 0x4f, 0x70, 0x2f,
  0x74, 0x72, 0x61, 0x6e, 0x73, 0x70, 0x6f, 0x73, 0x65, 0x00, 0x00, 0x00,
  0x02, 0x00, 0x00, 0x00, 0x08, 0x00, 0x00, 0x00, 0x01, 0x00, 0x00, 0x00,
  0xa6, 0xff, 0xff, 0xff, 0x48, 0x00, 0x00, 0x00, 0x09, 0x00, 0x00, 0x00,
  0x2c, 0x00, 0x00, 0x00, 0x0c, 0x00, 0x00, 0x00, 0x08, 0x00, 0x0c, 0x00,
  0x04, 0x00, 0x08, 0x00, 0x08, 0x00, 0x00, 0x00, 0x10, 0x00, 0x00, 0x00,
  0x04, 0x00, 0x00, 0x00, 0x01, 0x00, 0x00, 0x00, 0x00, 0x00, 0x7f, 0x43,
  0x01, 0x00, 0x00, 0x00, 0x00, 0x00, 0x00, 0x00, 0x0e, 0x00, 0x00, 0x00,
  0x64, 0x65, 0x6e, 0x73, 0x65, 0x5f, 0x33, 0x30, 0x5f, 0x69, 0x6e, 0x70,
  0x75, 0x74, 0x00, 0x00, 0x02, 0x00, 0x00, 0x00, 0x01, 0x00, 0x00, 0x00,
  0x01, 0x00, 0x00, 0x00, 0x00, 0x00, 0x0e, 0x00, 0x14, 0x00, 0x04, 0x00,
  0x00, 0x00, 0x08, 0x00, 0x0c, 0x00, 0x10, 0x00, 0x0e, 0x00, 0x00, 0x00,
  0x28, 0x00, 0x00, 0x00, 0x0d, 0x00, 0x00, 0x00, 0x10, 0x00, 0x00, 0x00,
  0x08, 0x00, 0x00, 0x00, 0x04, 0x00, 0x04, 0x00, 0x04, 0x00, 0x00, 0x00,
  0x08, 0x00, 0x00, 0x00, 0x49, 0x64, 0x65, 0x6e, 0x74, 0x69, 0x74, 0x79,
  0x00, 0x00, 0x00, 0x00, 0x02, 0x00, 0x00, 0x00, 0x01, 0x00, 0x00, 0x00,
  0x01, 0x00, 0x00, 0x00, 0x01, 0x00, 0x00, 0x00, 0x10, 0x00, 0x00, 0x00,
  0x00, 0x00, 0x0a, 0x00, 0x0c, 0x00, 0x07, 0x00, 0x00, 0x00, 0x08, 0x00,
  0x0a, 0x00, 0x00, 0x00, 0x00, 0x00, 0x00, 0x09, 0x03, 0x00, 0x00, 0x00
};
unsigned int sine_model_quantized_tflite_len = 2376;
